0x150000000 00000000000000000000000000000000000101010001010100010101000101010001010100010101000101010001010100010101000101010001010100010101
0x150000040 00000000000000000000000000000000000000000000000000000000000000000000000000000000000000000000000000000000000000000000000000000000
0x150000080 00000000000000000000000000000000000101010001010100010101000101010001010100010101000101010001010100010101000101010001010100010101
0x1500000C0 00000000000000000000000000000000000000000000000000000000000000000000000000000000000000000000000000000000000000000000000000000000
0x150000100 00000000000000000000000000000000000101010001010100010101000101010001010100010101000101010001010100010101000101010001010100010101
0x150000140 00000000000000000000000000000000000000000000000000000000000000000000000000000000000000000000000000000000000000000000000000000000
0x150000180 00000000000000000000000000000000000101010001010100010101000101010001010100010101000101010001010100010101000101010001010100010101
0x1500001C0 00000000000000000000000000000000000000000000000000000000000000000000000000000000000000000000000000000000000000000000000000000000
0x150000200 00000000000000000000000000000000000101010001010100010101000101010001010100010101000101010001010100010101000101010001010100010101
0x150000240 00000000000000000000000000000000000000000000000000000000000000000000000000000000000000000000000000000000000000000000000000000000
0x150000280 00000000000000000000000000000000000101010001010100010101000101010001010100010101000101010001010100010101000101010001010100010101
0x1500002C0 00000000000000000000000000000000000000000000000000000000000000000000000000000000000000000000000000000000000000000000000000000000
0x150000300 00000000000000000000000000000000000101010001010100010101000101010001010100010101000101010001010100010101000101010001010100010101
0x150000340 00000000000000000000000000000000000000000000000000000000000000000000000000000000000000000000000000000000000000000000000000000000
0x150000380 00000000000000000000000000000000000101010001010100010101000101010001010100010101000101010001010100010101000101010001010100010101
0x1500003C0 00000000000000000000000000000000000000000000000000000000000000000000000000000000000000000000000000000000000000000000000000000000
0x150000400 00000000000000000000000000000000000101010001010100010101000101010001010100010101000101010001010100010101000101010001010100010101
0x150000440 00000000000000000000000000000000000000000000000000000000000000000000000000000000000000000000000000000000000000000000000000000000
